000000010001000100010001FFFFFFFFFFFF00010001FFFF0001FFFF00010001FFFF0001FFFF00010001FFFF0001FFFF00010001FFFF0001FFFF000100010001000100010001000100000001000100010001FFFFFFFFFFFF00010001FFFF0001FFFF00010001FFFF0001FFFF00010001FFFF0001FFFF00010001FFFF0001FFFF000100010001000100010001000100010000000100010001FFFFFFFFFFFF00010001FFFF0001FFFF00010001FFFF0001FFFF00010001FFFF0001FFFF00010001FFFF0001FFFF000100010001000100010001000100010001000000010001FFFFFFFFFFFF00010001FFFF0001FFFF00010001FFFF0001FFFF00010001FFFF0001FFFF00010001FFFF0001FFFF000100010001000100010001000100010001000100000001FFFFFFFFFFFF00010001FFFF0001FFFF00010001FFFF0001FFFF00010001FFFF0001FFFF00010001FFFF0001FFFF000100010001000100010001000100010001000100010000FFFFFFFFFFFF00010001FFFF0001FFFF00010001FFFF0001FFFF00010001FFFF0001FFFF00010001FFFF0001FFFF000100010001000100010001FFFFFFFFFFFFFFFFFFFFFFFF000000010001FFFFFFFF0001FFFF0001FFFFFFFF0001FFFF0001FFFFFFFF0001FFFF0001FFFFFFFF0001FFFF0001FFFFFFFFFFFFFFFFFFFFFFFFFFFFFFFFFFFFFFFFFFFFFFFF000100000001FFFFFFFF0001FFFF0001FFFFFFFF0001FFFF0001FFFFFFFF0001FFFF0001FFFFFFFF0001FFFF0001FFFFFFFFFFFFFFFFFFFFFFFFFFFFFFFFFFFFFFFFFFFFFFFF000100010000FFFFFFFF0001FFFF0001FFFFFFFF0001FFFF0001FFFFFFFF0001FFFF0001FFFFFFFF0001FFFF0001FFFFFFFFFFFFFFFFFFFFFFFF000100010001000100010001FFFFFFFFFFFF00000001FFFF0001FFFF00010001FFFF0001FFFF00010001FFFF0001FFFF00010001FFFF0001FFFF000100010001000100010001000100010001000100010001FFFFFFFFFFFF00010000FFFF0001FFFF00010001FFFF0001FFFF00010001FFFF0001FFFF00010001FFFF0001FFFF000100010001000100010001FFFFFFFFFFFFFFFFFFFFFFFF000100010001FFFFFFFF0000FFFF0001FFFFFFFF0001FFFF0001FFFFFFFF0001FFFF0001FFFFFFFF0001FFFF0001FFFFFFFFFFFFFFFFFFFFFFFF000100010001000100010001FFFFFFFFFFFF00010001FFFF0000FFFF00010001FFFF0001FFFF00010001FFFF0001FFFF00010001FFFF0001FFFF000100010001000100010001FFFFFFFFFFFFFFFFFFFFFFFF000100010001FFFFFFFF0001FFFF0000FFFFFFFF0001FFFF0001FFFFFFFF0001FFFF0001FFFFFFFF0001FFFF0001FFFFFFFFFFFFFFFFFFFFFFFF000100010001000100010001FFFFFFFFFFFF00010001FFFF0001FFFF00000001FFFF0001FFFF00010001FFFF0001FFFF00010001FFFF0001FFFF000100010001000100010001000100010001000100010001FFFFFFFFFFFF00010001FFFF0001FFFF00010000FFFF0001FFFF00010001FFFF0001FFFF00010001FFFF0001FFFF000100010001000100010001FFFFFFFFFFFFFFFFFFFFFFFF000100010001FFFFFFFF0001FFFF0001FFFFFFFF0000FFFF0001FFFFFFFF0001FFFF0001FFFFFFFF0001FFFF0001FFFFFFFFFFFFFFFFFFFFFFFF000100010001000100010001FFFFFFFFFFFF00010001FFFF0001FFFF00010001FFFF0000FFFF00010001FFFF0001FFFF00010001FFFF0001FFFF000100010001000100010001FFFFFFFFFFFFFFFFFFFFFFFF000100010001FFFFFFFF0001FFFF0001FFFFFFFF0001FFFF0000FFFFFFFF0001FFFF0001FFFFFFFF0001FFFF0001FFFFFFFFFFFFFFFFFFFFFFFF000100010001000100010001FFFFFFFFFFFF00010001FFFF0001FFFF00010001FFFF0001FFFF00000001FFFF0001FFFF00010001FFFF0001FFFF000100010001000100010001000100010001000100010001FFFFFFFFFFFF00010001FFFF0001FFFF00010001FFFF0001FFFF00010000FFFF0001FFFF00010001FFFF0001FFFF000100010001000100010001FFFFFFFFFFFFFFFFFFFFFFFF000100010001FFFFFFFF0001FFFF0001FFFFFFFF0001FFFF0001FFFFFFFF0000FFFF0001FFFFFFFF0001FFFF0001FFFFFFFFFFFFFFFFFFFFFFFF000100010001000100010001FFFFFFFFFFFF00010001FFFF0001FFFF00010001FFFF0001FFFF00010001FFFF0000FFFF00010001FFFF0001FFFF000100010001000100010001FFFFFFFFFFFFFFFFFFFFFFFF000100010001FFFFFFFF0001FFFF0001FFFFFFFF0001FFFF0001FFFFFFFF0001FFFF0000FFFFFFFF0001FFFF0001FFFFFFFFFFFFFFFFFFFFFFFF000100010001000100010001FFFFFFFFFFFF00010001FFFF0001FFFF00010001FFFF0001FFFF00010001FFFF0001FFFF00000001FFFF0001FFFF000100010001000100010001000100010001000100010001FFFFFFFFFFFF00010001FFFF0001FFFF00010001FFFF0001FFFF00010001FFFF0001FFFF00010000FFFF0001FFFF000100010001000100010001FFFFFFFFFFFFFFFFFFFFFFFF000100010001FFFFFFFF0001FFFF0001FFFFFFFF0001FFFF0001FFFFFFFF0001FFFF0001FFFFFFFF0000FFFF0001FFFFFFFFFFFFFFFFFFFFFFFF000100010001000100010001FFFFFFFFFFFF00010001FFFF0001FFFF00010001FFFF0001FFFF00010001FFFF0001FFFF00010001FFFF0000FFFF000100010001000100010001FFFFFFFFFFFFFFFFFFFFFFFF000100010001FFFFFFFF0001FFFF0001FFFFFFFF0001FFFF0001FFFFFFFF0001FFFF0001FFFFFFFF0001FFFF0000FFFFFFFFFFFFFFFFFFFFFFFF000100010001000100010001FFFFFFFFFFFF00010001FFFF0001FFFF00010001FFFF0001FFFF00010001FFFF0001FFFF00010001FFFF0001FFFF000000010001000100010001000100010001000100010001FFFFFFFFFFFF00010001FFFF0001FFFF00010001FFFF0001FFFF00010001FFFF0001FFFF00010001FFFF0001FFFF000100000001000100010001000100010001000100010001FFFFFFFFFFFF00010001FFFF0001FFFF00010001FFFF0001FFFF00010001FFFF0001FFFF00010001FFFF0001FFFF000100010000000100010001000100010001000100010001FFFFFFFFFFFF00010001FFFF0001FFFF00010001FFFF0001FFFF00010001FFFF0001FFFF00010001FFFF0001FFFF000100010001000000010001000100010001000100010001FFFFFFFFFFFF00010001FFFF0001FFFF00010001FFFF0001FFFF00010001FFFF0001FFFF00010001FFFF0001FFFF000100010001000100000001000100010001000100010001FFFFFFFFFFFF00010001FFFF0001FFFF00010001FFFF0001FFFF00010001FFFF0001FFFF00010001FFFF0001FFFF000100010001000100010000